<pad>	0
<s>	0
</s>	0
<unk>	0
▁t	-0
ng	-1
▁c	-2
▁đ	-3
nh	-4
▁th	-5
▁h	-6
▁k	-7
▁v	-8
▁tr	-9
▁m	-10
▁b	-11
▁nh	-12
▁l	-13
▁ch	-14
▁s	-15
▁kh	-16
ph	-17
ông	-18
▁ph	-19
▁n	-20
▁g	-21
▁ng	-22
ác	-23
iệ	-24
▁d	-25
▁củ	-26
ượ	-27
▁của	-28
ược	-29
▁gi	-30
▁được	-31
qu	-32
ên	-33
▁qu	-34
ườ	-35
ành	-36
▁x	-37
ất	-38
ột	-39
ại	-40
ến	-41
ướ	-42
▁C	-43
▁N	-44
iên	-45
▁sẽ	-46
▁các	-47
▁một	-48
ân	-49
ản	-50
▁T	-51
ong	-52
ững	-53
▁và	-54
ận	-55
ới	-56
▁r	-57
▁công	-58
▁trong	-59
oà	-60
uy	-61
án	-62
ước	-63
▁không	-64
an	-65
ải	-66
ần	-67
ội	-68
▁đã	-69
ôi	-70
ạn	-71
ều	-72
ang	-73
iện	-74
ười	-75
▁là	-76
▁viên	-77
ày	-78
oàn	-79
ăng	-80
▁cho	-81
▁đến	-82
▁người	-83
▁thành	-84
▁H	-85
iều	-86
▁cu	-87
▁ty	-88
▁đị	-89
▁gia	-90
▁thu	-91
▁nhân	-92
▁trước	-93
iế	-94
ộc	-95
iệc	-96
úng	-97
▁Nh	-98
▁dự	-99
▁họ	-100
▁từ	-101
▁ngh	-102
ay	-103
on	-104
▁lý	-105
▁khác	-106
▁phải	-107
▁những	-108
ai	-109
ch	-110
ơn	-111
ầu	-112
ối	-113
ổi	-114
▁V	-115
ung	-116
ình	-117
ính	-118
ằng	-119
▁có	-120
▁đó	-121
▁để	-122
▁tha	-123
▁tôi	-124
▁hoàn	-125
▁việc	-126
▁Những	-127
ảo	-128
ốc	-129
▁A	-130
▁S	-131
▁ký	-132
▁bạn	-133
▁khi	-134
▁nhà	-135
▁này	-136
▁quy	-137
▁thể	-138
▁tại	-139
▁chuy	-140
▁hành	-141
▁quản	-142
▁rằng	-143
▁tham	-144
▁chúng	-145
ar	-146
es	-147
iể	-148
or	-149
ti	-150
áy	-151
êu	-152
ăm	-153
ưa	-154
ươ	-155
ết	-156
ời	-157
ợp	-158
▁B	-159
▁M	-160
oán	-161
áng	-162
òng	-163
ườn	-164
ồng	-165
▁bị	-166
▁bộ	-167
▁kỳ	-168
▁tu	-169
▁tạ	-170
▁xe	-171
ường	-172
▁hợp	-173
▁lại	-174
▁mưa	-175
▁mới	-176
▁nên	-177
▁vào	-178
▁cuộc	-179
▁cách	-180
▁hiện	-181
▁quan	-182
▁vườn	-183
▁định	-184
▁đồng	-185
▁nhiều	-186
er	-187
in	-188
oa	-189
áo	-190
ăn	-191
ấp	-192
ập	-193
ắt	-194
ếu	-195
ức	-196
ửa	-197
▁í	-198
▁Đ	-199
uất	-200
àng	-201
ọng	-202
▁Ch	-203
▁bu	-204
▁tổ	-205
▁án	-206
▁độ	-207
ương	-208
▁giá	-209
▁hội	-210
▁khu	-211
▁phí	-212
▁phố	-213
▁phụ	-214
▁trí	-215
▁với	-216
▁ông	-217
▁địa	-218
▁hàng	-219
▁ngày	-220
▁nhận	-221
▁toán	-222
▁đang	-223
▁đăng	-224
▁khách	-225
▁nghiệ	-226
▁phòng	-227
ur	-228
ào	-229
át	-230
ây	-231
ìm	-232
ạc	-233
ảm	-234
ảy	-235
ấn	-236
ắc	-237
ền	-238
ực	-239
▁D	-240
▁J	-241
▁K	-242
▁y	-243
▁ở	-244
iết	-245
iểm	-246
▁Tr	-247
▁kế	-248
▁ra	-249
▁số	-250
▁sự	-251
ượng	-252
▁Các	-253
▁Hội	-254
▁Nếu	-255
▁bản	-256
▁bắt	-257
▁cầu	-258
▁cửa	-259
▁hơn	-260
▁hạn	-261
▁học	-262
▁họp	-263
▁khó	-264
▁năm	-265
▁nội	-266
▁tìm	-267
▁tạo	-268
▁vận	-269
▁đầu	-270
▁buổi	-271
▁chức	-272
▁nông	-273
▁năng	-274
▁nước	-275
▁phần	-276
▁toàn	-277
▁tuần	-278
▁tính	-279
▁xuất	-280
▁động	-281
▁tháng	-282
▁trang	-283
▁chuyến	-284
ah	-285
en	-286
eo	-287
ia	-288
is	-289
ke	-290
ol	-291
xl	-292
àn	-293
áp	-294
ãy	-295
út	-296
ưở	-297
ật	-298
ển	-299
ọi	-300
ỗi	-301
ộp	-302
ửi	-303
▁5	-304
▁F	-305
▁G	-306
▁L	-307
oài	-308
oại	-309
oản	-310
ách	-311
ống	-312
ụng	-313
ứng	-314
▁Th	-315
▁ai	-316
▁ba	-317
▁cả	-318
▁hệ	-319
▁lỡ	-320
▁mà	-321
▁mở	-322
▁sử	-323
▁ti	-324
▁đặ	-325
ưởng	-326
▁bán	-327
▁bảo	-328
▁bất	-329
▁cấp	-330
▁cần	-331
▁dân	-332
▁gửi	-333
▁khả	-334
▁làm	-335
▁lạc	-336
▁máy	-337
▁mọi	-338
▁mỗi	-339
▁nộp	-340
▁tuy	-341
▁vấn	-342
▁xem	-343
▁yêu	-344
▁ích	-345
▁đơn	-346
▁cuối	-347
▁dung	-348
▁dụng	-349
▁giao	-350
▁giảm	-351
▁mang	-352
▁nhiệ	-353
▁nhất	-354
▁phục	-355
▁quốc	-356
▁theo	-357
▁thời	-358
▁truy	-359
▁điều	-360
▁đóng	-361
▁chính	-362
▁khoản	-363
▁lượng	-364
▁quyết	-365
▁thuận	-366
▁thuốc	-367
▁thông	-368
▁trọng	-369
▁đường	-370
▁chuyển	-371
▁nghiệp	-372
▁trường	-373
30	-374
TT	-375
▁	-376
n	-377
h	-378
t	-379
c	-380
g	-381
i	-382
a	-383
u	-384
đ	-385
o	-386
m	-387
r	-388
à	-389
á	-390
ư	-391
k	-392
p	-393
y	-394
v	-395
.	-396
l	-397
s	-398
ô	-399
b	-400
ả	-401
ộ	-402
ế	-403
ạ	-404
ệ	-405
ợ	-406
e	-407
ớ	-408
d	-409
ủ	-410
ê	-411
ờ	-412
ấ	-413
ố	-414
ể	-415
q	-416
í	-417
ị	-418
,	-419
x	-420
â	-421
ó	-422
ậ	-423
ề	-424
ă	-425
ầ	-426
T	-427
ữ	-428
ự	-429
N	-430
ã	-431
ọ	-432
C	-433
ý	-434
ơ	-435
ẽ	-436
ì	-437
ở	-438
ú	-439
ổ	-440
ụ	-441
ừ	-442
ử	-443
H	-444
ò	-445
ứ	-446
V	-447
ắ	-448
ằ	-449
ỏ	-450
ồ	-451
A	-452
S	-453
B	-454
M	-455
ỗ	-456
ỳ	-457
0	-458
w	-459
Đ	-460
D	-461
F	-462
J	-463
K	-464
é	-465
ù	-466
ũ	-467
ặ	-468
1	-469
5	-470
G	-471
L	-472
W	-473
ỡ	-474
*	-475
3	-476
4	-477
O	-478
P	-479
ẩ	-480
ẫ	-481
ẻ	-482
ễ	-483
ỉ	-484
%	-485
-	-486
2	-487
9	-488
E	-489
I	-490
Q	-491
U	-492
Z	-493
j	-494
è	-495
