<pad>	0
<s>	0
</s>	0
<unk>	0
▁t	-0
ng	-1
▁c	-2
▁đ	-3
nh	-4
▁h	-5
▁th	-6
▁k	-7
▁v	-8
▁tr	-9
▁m	-10
▁b	-11
▁nh	-12
▁l	-13
▁ch	-14
▁kh	-15
▁s	-16
ph	-17
▁n	-18
▁ph	-19
ông	-20
▁g	-21
▁ng	-22
ác	-23
iệ	-24
▁d	-25
▁củ	-26
▁của	-27
ên	-28
ượ	-29
▁gi	-30
qu	-31
ườ	-32
▁qu	-33
ành	-34
ược	-35
▁được	-36
ướ	-37
ất	-38
ến	-39
ột	-40
▁x	-41
ại	-42
▁C	-43
▁N	-44
▁T	-45
iên	-46
ong	-47
▁sẽ	-48
▁các	-49
▁một	-50
ân	-51
ản	-52
ước	-53
ững	-54
▁và	-55
▁trong	-56
ới	-57
uy	-58
án	-59
ần	-60
ận	-61
▁r	-62
▁công	-63
oà	-64
ạn	-65
ội	-66
ười	-67
▁không	-68
an	-69
ày	-70
ôi	-71
ải	-72
ang	-73
▁đã	-74
▁đến	-75
▁viên	-76
▁người	-77
ều	-78
iện	-79
ăng	-80
▁cho	-81
▁thành	-82
▁trước	-83
▁H	-84
oàn	-85
▁cu	-86
▁họ	-87
▁là	-88
▁đị	-89
▁gia	-90
▁thu	-91
▁nhân	-92
iế	-93
on	-94
ộc	-95
iều	-96
úng	-97
▁Nh	-98
▁dự	-99
▁ty	-100
▁ngh	-101
▁khác	-102
ay	-103
iệc	-104
ình	-105
ằng	-106
▁có	-107
▁lý	-108
▁từ	-109
▁những	-110
ai	-111
ch	-112
ơn	-113
ầu	-114
ối	-115
ổi	-116
ung	-117
ính	-118
▁để	-119
▁tha	-120
▁tôi	-121
▁hoàn	-122
▁phải	-123
▁việc	-124
▁Những	-125
ảo	-126
ốc	-127
▁A	-128
▁B	-129
▁S	-130
▁V	-131
▁ký	-132
▁bạn	-133
▁khi	-134
▁nhà	-135
▁này	-136
▁nên	-137
▁quy	-138
▁thể	-139
▁tại	-140
▁chuy	-141
▁hành	-142
▁quản	-143
▁rằng	-144
▁tham	-145
▁chúng	-146
ar	-147
es	-148
iể	-149
or	-150
ti	-151
áy	-152
ăm	-153
ưa	-154
ươ	-155
ết	-156
ời	-157
ợp	-158
▁M	-159
oán	-160
áng	-161
òng	-162
ườn	-163
ồng	-164
▁bị	-165
▁bộ	-166
▁tu	-167
▁tạ	-168
▁đó	-169
▁độ	-170
ường	-171
▁hợp	-172
▁lại	-173
▁mưa	-174
▁mới	-175
▁vào	-176
▁cuộc	-177
▁cách	-178
▁quan	-179
▁vườn	-180
▁định	-181
▁đồng	-182
▁nhiều	-183
er	-184
in	-185
oa	-186
áo	-187
ây	-188
êu	-189
ăn	-190
ấp	-191
ập	-192
ắt	-193
ếu	-194
ức	-195
▁í	-196
▁Đ	-197
uất	-198
àng	-199
▁Ch	-200
▁Tr	-201
▁bu	-202
▁kỳ	-203
▁tổ	-204
▁xe	-205
▁án	-206
ương	-207
▁giá	-208
▁hội	-209
▁khu	-210
▁khó	-211
▁phí	-212
▁phố	-213
▁phụ	-214
▁trí	-215
▁với	-216
▁ông	-217
▁địa	-218
▁hiện	-219
▁hàng	-220
▁ngày	-221
▁toán	-222
▁đang	-223
▁đăng	-224
▁động	-225
▁khách	-226
▁nghiệ	-227
▁phòng	-228
ur	-229
ào	-230
át	-231
ìm	-232
ạc	-233
ảm	-234
ảy	-235
ấn	-236
ắc	-237
ền	-238
ửa	-239
▁J	-240
▁K	-241
▁y	-242
▁ở	-243
iết	-244
iểm	-245
ọng	-246
▁kế	-247
▁mà	-248
▁ra	-249
▁số	-250
▁sự	-251
ượng	-252
▁Các	-253
▁Hội	-254
▁Nếu	-255
▁bản	-256
▁bắt	-257
▁cần	-258
▁cầu	-259
▁hơn	-260
▁hạn	-261
▁học	-262
▁họp	-263
▁năm	-264
▁nội	-265
▁tìm	-266
▁tạo	-267
▁vận	-268
▁đầu	-269
▁buổi	-270
▁chức	-271
▁nhận	-272
▁nông	-273
▁năng	-274
▁nước	-275
▁phần	-276
▁tuần	-277
▁tính	-278
▁xuất	-279
▁tháng	-280
▁trang	-281
▁chuyến	-282
ah	-283
en	-284
eo	-285
ia	-286
is	-287
ke	-288
ol	-289
xl	-290
àn	-291
áp	-292
ãy	-293
út	-294
ưở	-295
ật	-296
ển	-297
ọi	-298
ộp	-299
ửi	-300
ực	-301
▁5	-302
▁D	-303
▁F	-304
▁G	-305
▁L	-306
oài	-307
oại	-308
oản	-309
ách	-310
ống	-311
ụng	-312
ứng	-313
▁Th	-314
▁ai	-315
▁ba	-316
▁cả	-317
▁hệ	-318
▁lỡ	-319
▁mở	-320
▁sử	-321
▁ti	-322
▁đặ	-323
ưởng	-324
▁bán	-325
▁bảo	-326
▁bất	-327
▁cấp	-328
▁cửa	-329
▁dân	-330
▁gửi	-331
▁khả	-332
▁làm	-333
▁lạc	-334
▁máy	-335
▁mọi	-336
▁nộp	-337
▁tiế	-338
▁tuy	-339
▁vấn	-340
▁yêu	-341
▁ích	-342
▁đơn	-343
▁cuối	-344
▁dung	-345
▁dụng	-346
▁giao	-347
▁giảm	-348
▁mang	-349
▁nhiệ	-350
▁nhất	-351
▁phục	-352
▁quốc	-353
▁theo	-354
▁thời	-355
▁toàn	-356
▁truy	-357
▁chính	-358
▁khoản	-359
▁lượng	-360
▁quyết	-361
▁thuận	-362
▁thuốc	-363
▁thông	-364
▁trình	-365
▁trọng	-366
▁đường	-367
▁chuyển	-368
▁nghiệp	-369
▁trường	-370
30	-371
TT	-372
ac	-373
ak	-374
ao	-375
au	-376
▁	-377
n	-378
h	-379
t	-380
c	-381
g	-382
i	-383
a	-384
u	-385
đ	-386
o	-387
m	-388
r	-389
à	-390
á	-391
ư	-392
p	-393
k	-394
y	-395
v	-396
.	-397
l	-398
s	-399
b	-400
ô	-401
ộ	-402
ả	-403
ế	-404
ạ	-405
ệ	-406
e	-407
ớ	-408
d	-409
ợ	-410
ờ	-411
ê	-412
ủ	-413
ấ	-414
ố	-415
ể	-416
ị	-417
q	-418
í	-419
,	-420
â	-421
ó	-422
x	-423
ă	-424
ầ	-425
ậ	-426
ề	-427
T	-428
ữ	-429
N	-430
ọ	-431
ự	-432
C	-433
ã	-434
ý	-435
ơ	-436
ẽ	-437
ì	-438
ú	-439
ổ	-440
ở	-441
ụ	-442
ừ	-443
H	-444
ò	-445
ử	-446
ằ	-447
ứ	-448
ắ	-449
ỏ	-450
ồ	-451
V	-452
A	-453
B	-454
S	-455
M	-456
0	-457
w	-458
Đ	-459
ỗ	-460
ỳ	-461
F	-462
J	-463
K	-464
é	-465
ù	-466
ũ	-467
ặ	-468
1	-469
5	-470
D	-471
G	-472
L	-473
W	-474
ỡ	-475
*	-476
3	-477
4	-478
O	-479
P	-480
ẩ	-481
ẫ	-482
ẻ	-483
ễ	-484
ỉ	-485
%	-486
-	-487
2	-488
9	-489
E	-490
I	-491
Q	-492
U	-493
Z	-494
j	-495
