<pad>	0
<s>	0
</s>	0
<unk>	0
▁t	-0
he	-1
in	-2
▁a	-3
re	-4
▁the	-5
er	-6
en	-7
on	-8
▁s	-9
or	-10
▁w	-11
an	-12
▁b	-13
▁c	-14
at	-15
ing	-16
▁o	-17
▁to	-18
is	-19
ed	-20
▁f	-21
▁m	-22
es	-23
▁p	-24
ar	-25
▁of	-26
om	-27
▁be	-28
ll	-29
ou	-30
▁h	-31
▁T	-32
▁d	-33
it	-34
▁re	-35
le	-36
ic	-37
▁n	-38
ent	-39
ec	-40
ro	-41
▁in	-42
st	-43
ion	-44
al	-45
▁an	-46
ve	-47
▁The	-48
▁e	-49
▁th	-50
lo	-51
▁is	-52
ce	-53
ers	-54
omp	-55
▁ha	-56
▁for	-57
id	-58
ts	-59
un	-60
▁are	-61
ot	-62
et	-63
il	-64
pp	-65
ra	-66
▁A	-67
ill	-68
▁and	-69
▁comp	-70
▁that	-71
ag	-72
▁g	-73
end	-74
ment	-75
ig	-76
ld	-77
▁C	-78
any	-79
ect	-80
ore	-81
▁me	-82
▁st	-83
▁pro	-84
ation	-85
▁will	-86
ay	-87
im	-88
ir	-89
ss	-90
ur	-91
▁S	-92
ard	-93
ver	-94
▁ne	-95
▁we	-96
ho	-97
us	-98
▁I	-99
▁M	-100
▁y	-101
ort	-102
▁on	-103
ould	-104
▁con	-105
▁not	-106
▁company	-107
ok	-108
ow	-109
ut	-110
art	-111
▁ac	-112
▁by	-113
rain	-114
ad	-115
nt	-116
▁l	-117
and	-118
ble	-119
ity	-120
ive	-121
lic	-122
▁at	-123
▁de	-124
▁sh	-125
▁un	-126
anag	-127
▁manag	-128
du	-129
all	-130
ate	-131
rom	-132
▁ex	-133
▁lo	-134
▁app	-135
▁has	-136
▁who	-137
▁you	-138
▁from	-139
▁have	-140
ac	-141
mb	-142
qu	-143
ub	-144
▁F	-145
▁P	-146
ast	-147
ees	-148
ial	-149
igh	-150
imp	-151
ine	-152
iss	-153
ork	-154
ran	-155
ree	-156
ure	-157
vis	-158
▁se	-159
▁te	-160
ants	-161
fore	-162
ount	-163
▁acc	-164
eting	-165
▁rain	-166
▁work	-167
▁before	-168
▁manager	-169
ak	-170
ct	-171
iv	-172
ly	-173
mp	-174
th	-175
ul	-176
▁H	-177
▁O	-178
▁W	-179
ens	-180
est	-181
for	-182
ome	-183
ter	-184
▁bo	-185
▁co	-186
▁do	-187
▁or	-188
▁po	-189
ject	-190
▁imp	-191
▁new	-192
▁gard	-193
▁were	-194
▁should	-195
am	-196
ca	-197
ek	-198
el	-199
ew	-200
hn	-201
ip	-202
ob	-203
sp	-204
vi	-205
▁J	-206
ant	-207
ark	-208
ass	-209
ays	-210
day	-211
eng	-212
ess	-213
fic	-214
ide	-215
ies	-216
ire	-217
ith	-218
loy	-219
one	-220
per	-221
sed	-222
til	-223
use	-224
▁al	-225
▁it	-226
▁so	-227
▁su	-228
able	-229
line	-230
part	-231
view	-232
▁all	-233
▁dec	-234
▁emp	-235
▁end	-236
oking	-237
▁been	-238
▁memb	-239
▁requ	-240
▁week	-241
▁with	-242
▁your	-243
loyees	-244
▁until	-245
▁would	-246
▁applic	-247
partment	-248
▁account	-249
▁meeting	-250
▁employees	-251
Un	-252
ax	-253
ch	-254
cl	-255
ke	-256
op	-257
pt	-258
ry	-259
se	-260
ue	-261
▁B	-262
▁K	-263
▁r	-264
age	-265
ail	-266
ain	-267
arm	-268
ars	-269
der	-270
fer	-271
her	-272
ien	-273
ign	-274
ind	-275
ipp	-276
ist	-277
let	-278
lub	-279
mer	-280
now	-281
omm	-282
ors	-283
rit	-284
ust	-285
ved	-286
ven	-287
▁If	-288
▁Mr	-289
▁Th	-290
▁Un	-291
▁We	-292
▁af	-293
▁he	-294
▁le	-295
▁pl	-296
▁pr	-297
▁ro	-298
▁sm	-299
▁us	-300
▁wh	-301
ater	-302
ided	-303
ions	-304
onth	-305
ress	-306
tend	-307
very	-308
yone	-309
▁beg	-310
▁can	-311
▁exp	-312
▁per	-313
▁pub	-314
▁reg	-315
▁rem	-316
cause	-317
▁city	-318
▁conf	-319
▁more	-320
▁part	-321
▁rece	-322
▁team	-323
▁tran	-324
asseng	-325
▁board	-326
▁month	-327
▁their	-328
▁garden	-329
▁public	-330
▁because	-331
▁members	-332
▁project	-333
▁workers	-334
▁accounting	-335
▁department	-336
30	-337
af	-338
ah	-339
as	-340
by	-341
cu	-342
de	-343
em	-344
ft	-345
ge	-346
go	-347
ib	-348
iz	-349
la	-350
lp	-351
nc	-352
ug	-353
xt	-354
▁4	-355
▁5	-356
▁D	-357
▁E	-358
▁G	-359
▁L	-360
▁N	-361
▁V	-362
▁j	-363
ach	-364
ady	-365
are	-366
bor	-367
bou	-368
cal	-369
che	-370
cre	-371
eds	-372
ene	-373
eop	-374
ere	-375
erm	-376
erv	-377
ful	-378
ger	-379
hno	-380
hop	-381
iat	-382
ice	-383
ied	-384
ile	-385
ise	-386
ish	-387
ley	-388
log	-389
low	-390
mor	-391
nce	-392
oke	-393
old	-394
ond	-395
oup	-396
pen	-397
res	-398
row	-399
ull	-400
ult	-401
yst	-402
▁30	-403
▁As	-404
▁Co	-405
▁It	-406
▁Ms	-407
▁Sc	-408
▁St	-409
▁ad	-410
▁ar	-411
▁bu	-412
▁en	-413
▁go	-414
▁sp	-415
▁ye	-416
ally	-417
ated	-418
cent	-419
cept	-420
duct	-421
dust	-422
ects	-423
fall	-424
fice	-425
ford	-426
form	-427
ices	-428
icip	-429
ider	-430
ight	-431
irst	-432
ited	-433
iver	-434
ives	-435
▁	-436
e	-437
t	-438
o	-439
a	-440
n	-441
r	-442
i	-443
s	-444
h	-445
l	-446
d	-447
c	-448
m	-449
p	-450
u	-451
f	-452
g	-453
b	-454
w	-455
y	-456
.	-457
v	-458
k	-459
T	-460
,	-461
A	-462
x	-463
C	-464
M	-465
S	-466
'	-467
I	-468
-	-469
j	-470
F	-471
O	-472
P	-473
W	-474
q	-475
0	-476
H	-477
z	-478
J	-479
1	-480
5	-481
B	-482
E	-483
K	-484
U	-485
V	-486
*	-487
3	-488
4	-489
D	-490
G	-491
L	-492
N	-493
%	-494
2	-495
